551A7F33F2154C3952
75167F36D528564260
C9E8C0EF2DE3D4E7BE
E6FBD7EB1AF7E3EBD4
56265A2EE212551F56
9AE1B0D3FBD6A1D1B4
F8EEF3E6EAF8EAEEE7
A907C0ED20F7AAE0A9
23171B1EDC15171D24
2B17300FF509320230
E0E2D1EA17EED1FACE
0F160500EA20090FF3
300D1C09F80D2E0D22
E1F1E8F809EDCFFCD7
AFD8AFE712D5BCE0BD
4A294420E92446193E