5581AED9290D0C06EF
3D7C703A477F1D0D1A
829881AF999396A9BA
5E47E16C22DE6181D5
DC818E93A5E53392CA
105EC5E27FA75454BA
757F5A5A4B35593633
54491A687F43555F6A
FDFFFF0B02FFED0801
F90603FEF60E081415
FEFEFEFC0BF0F0FDF5
FF06FFFCFD0508FCFE
CF00F8F314F10F11F3
E41600F70FCAFDDDF7
0CFF0803FFFD0B0E10
060601060701FC05FF
03FCFEFD080711FFF7
3808F714220AF800F8
060AD2292303EE0CF4
F5F6E3F3EBEE09180F
022AEC2B4D551BE903
02E6B70104A91EC39A
1024E41105FEF0E2D1
3515EE0403DFFC020A
F501FAFA0AFCF900F7
F6F9F2F4FDF9000D0A
FCFBFA0CF70AF50DFE
FBFDFEFF0502FB0401
1B0D0EF105FFFE1311
ED14FE130EFFE51A00
FA05FFFCFC02000204
0601F40BFD03FC02F9
F3FA0201140C0CC4D8
E025FAE0F7F5F71205
15FEF3140D18ED0100
11C9EB19F5F70602F4
4DC6F72B1B190A0D12
0E1F19362A1E0B4CF7
EA3317F3FF10F0FEFF
021606FCFAFD0EFF06
F5010500090902FF05
F3F4FCFDFBFBF50CF5
0008F8F9F801FE0D01
00FDFB040403040104
18F703F4FB140217F5
EFF915E81507E7E6FE
0303FFF906030403F8
F9F2FAF60B0801F507
FD04F9EDFBF80AF000
EF04E91202F9FEE8E6
EA100EBC012481F203
01E6F9F8FB05FF00FF
7F485C335A4B215E51
0603E8B505C39626D2
E30E2AEA0D1F0BF90E
F4DEE30B02ED0801F7
FEF4FEFF550CFDD7F7
1337FD0B1B05F6F2FD
144DD71C0DE8FDF8E6
25B1DF1CE2E2260E03
241D12071912EE0921
190CEE230AD8416BD1
171D1CFA0E1AFCF401
243BF60204ECFB0101
01FBFE0C5518ED81DD
077F091C1505E2E5FF
0C5DD306F9FAFD10E7
3981E11BFBDD2B1300
1A111711042E01FF0F
1009DC32F9B5537FBF
0C7F2000031EF8F70C
0E7FF5F708F2EFF301
FF0208010309000000
F105FE110207280801
DD2C2CB914BBDA98A4
FD0100FDFFFFFF0000
010305020204000102
00000002D002020204
452F1D06602EDCE3FD
0201020100FE000001
010304FF0303FF01FF
FF00000100FF000000
01FD1600F72E00030C
207F72EC06DCF80527
2C1B3F27504631CAFA
0004FF020200000000
05240723517F1D0502
FF0100810001030001
010004010081010005
01090605080120FE05
F1F20E074114FA0AE7
FFFF0006FF0100FE00
00E506010101000001
00FF00FF00010006FF
3A120163540F06060A
0202ABFF0002010000
00FF01FF050000FFFF
FFFFFFFF00FF03FF00
020614061540040215
051C1FEF1C0EEFF9E0
1422E51F1B1A254160
00010102000102F902
DFE129062E21092724
010000000000020101
0000FE01FF94000001
05FFFF03F5F9080B01
1D13FD1C7F28164E32
0000FF04FEFF000100
021D8E00FD01010100
000000FE0000FD02FD
05196434090A124423
010181030300000201
00FE00FB01FF000000
000000000000040000
F8FFF6FAF2F905100C
F8EE251113F5112402
E60D0DEAEB0205D7EA
01010002A0000281FE
F2170EDDEADEDC2710
01000000FF01010102
03020201FE06030101
020B001800FF7F10FB
E81E02C41156CBF624
020200810202020201
01FFF1000001030405
020202010201008101
0C7E74C5624FED086E
01010B01FFFE010000
07040302810A030306
010201010201810301
FEE40406DC0F0B040C
E90B3CD4083D090E1E
234234F8E4F907EFD5
0001FF0206FC0007FC
08092E0FDF12E71553
00FFFF02FFFFE800FF
FF0104FF0101000002
F4FBFEF601050D06FB
18E1F3414EFC11DBDB
010001FE0001FF0000
FF8102020100010001
00FF0001010001FE00
56F2E52AF9E2F5DEE8
000203FFFEFF000100
00010101FFFFFF0001
000001FF0001FFFFFB
091611FAFE22FEFCF9
314E1CE0F3FFFAE6E0
EBF6CBE95E2EE0EBE7
00FFFF00FEFF020000
E8EE08FB1C1AF4E0D4
000000010000000100
00FFFCFFFFFE000000
07FCFD0502FAFF0101
14330416771903370D
05FE0001FF000000FF
00FE02010200000000
FF02FFFC04FEFE02FE
170B321342F8F800EF
00FEFF010100000102
FD01FFFA0000FFFEFF
FF000004FF00010000
EFE6FE07F4F80210FB
CCE9E6F8040209FFF0
FBEE09D8BDF9F1ABD6
0001FF00C8FF020101
EAE8E2CCC3D9F117FE
01000003FF00FE0001
0102060004C7020106
09FA02F9070441FA0E
17011924753D0A1B14
0001000A0101000101
FFC803010103000203
000100FF0100010BFF
50671C7F3921103830
0106ED020103000001
0103FF0108FFFF0300
000100000001050001
FF083312037F070029
314E34141D2C0116E6
1A20DF142C7F303246
02000004000104FA02
E1E825FE131F180F5C
01FF00FE01FF120000
01000001FFAE000002
FC0004090101FAF8F7
0409FEF51C071040F3
FF0000030000000000
01180601020100FF00
000001FFFFFF0003FF
0E08021F070FFE3A15
02018B010101000000
00FF01FE0102000001
00000000000002FFFF
02F0E90B0024FCFE00
EE08F5142A14FDFE04
0802FF00E7F8131D56
01010002010100D100
1401EEEEF1FE0D1F2E
000000FFFF00020100
FCFC0000DB010D15FB
E9FA00DE12EFF506F5
01F300070F05FAFEFD
3C130157EDE4E5E5C7
E6EEE7FE4605212411
FEFFFF070B01FEF302
ADCC074491065ECDDD
A6DF3C8C81C4D2E7DE
090201000401010401
0000FFFF06090C10E8
1C4D36012A2A0F033D
06F80106E502020600
0202010C0201FF0001
08FB00FC02FEF0FC00
0502020AF400FBF203
E0E9E4E2A5E9B21629
000209FFF9AEFEFE00
FC0DF5010FFF060400
0000FD00010101FEFF
060AFBF0E9F8F6EFE6
FD08FDFC0A06F67F2D
FF00FFFFFACCFF0002
FC330E04EF2600D50C
1B21FB022614F32111
00A6FDFDFBFCFFFFFE
FFFDFEFFFFFEFCFAFA
07F804FF080A02FC00
FFFFF9FFFBFEFEFFFE
FFCEFDFDFEFEFEFEFF
02F8040301FF030402
FE01FDFEF701000001
FB01080508FF0A0C0B
00FE0203F601030B04
03F70203EE0D030002
0103FE000501FF0000
1002F91419FAFA0103
F6F8F5F90FFBFA1D0C
00020001080100F8FF
11EFECFE2DD4DF1E05
FCDCE117EBB91B0914
000200FF0300000002
020203FF040503070A
090C0DF1FC16F6F70F
030402050C01020400
FA0200020301010101
0306FEFAFD01050200
02010209FD0202FE05
0901FC07FEEE0CEB07
FF0501FDFE04FDF301
020C020613DE090601
000007FFFB810200FF
6706F9F9ED0704FDFA
FFF8ECF8F2EFFE05F9
FFFF00FEFAFEFF03FE
FA2E19F91C232CDA1E
29F4F111FC2B05F817
FFFF0206F500050000
FFFDFAFEFFFAFEF9C6
F1FBE7F60507F40506
FBF9FFFEEAFDFFFDFE
04FA01FE0101000001
FD000103F1FF0305FE
FDFFFEFAC700FE03FF
06FC0C0806170E02DF
020306FFC100FE0A08
0F0E1014BD1006050C
03040000FF02FF0303
5C52317F552838341D
F3F7FC13DBF40630CC
FF0001000400000604
0C002450E2377B4B18
D6DA6ED2C9C91821AA
0504FF810702FB0404
FBFF00FFFFFEF9FD00
DDD3F4ACA5ECB49281
FF01FF0002FC000701
AA0401020302030301
02FE01080700C4FA02
00FDFBD8FD0204FDF5
0E26220E1081FDBB32
010E01F881FCFEFA02
0D0EFE0DFE0C07FF06
FEFCFDFEFCFF00FF00
1EF907E4FB07F2FA00
FDF6F1F1EAF7000CF1
00FF00FE81FE000501
C543268B38180F0232
2F441E292731F2051B
02040009FD00030001
FFFBF8FEF7F6F9F3F4
F1F3E2EE02F3F4FBF7
F8FBFEFCFD00FFFCFE
000101FE00000001FF
F100010C0200010200
F601FDF700FFFF0500
070D181A1BDF0DC414
04030306F705040806
0A04030FF308030106
020400010200000103
2728071843FEFA1D02
02FDF90B2EFF022115
01020100040201FF01
1505000C59DFDE27FB
27DFE57106A46D4712
010502000601010102
FEFF01FF0402020408
FC0A09FD0904E8FA12
0103000308FF010400
FF0401020601010202
010901FD0203060302
03000204000003FE04
28271A2C08EE19E9FC
FE0204FCE6000916FB
F2FEFCE601FEEF18FC
02FC020204FB030903
B4E5016701F8C0BEDD
DBF6E5DFED05ED0CF5
00FF000102FF0508FE
E9E201C6D1010E9FFD
ED0C12AFD4E583AAB7
000001050100FFFFFF
00FF01010001090F0F
4D4943474D3C252A2F
0301FF06F6030400FE
FE000008030004FF01
F800FF12F8FEE8FCFC
FFFF000B0404FDF004
FDFE03EEBBC1BAD12A
0002FCFD0A01F9FA04
0A06000DFA0306F506
000602FDF5FA01FFFF
67E3F2E3ECEAFCFBED
F6F7F4FAFDEDF705FC
010100FDFA02FF06FF
1A0EF7813EE5C11F0A
23F8CC2D1C1519F121
FD020006020004FE01
FFFEFE0201FEFEF881
F5F1DF040C02010E01
FEFCFDFC810200FF01
010000FD01000100FE
FB04FFFEFA010A0300
FE0200FEFCFF0004FD
FAF5040318FB1BEFD5
FE0105FBF804FDFAFE
0C15FC0E0D060C0603
FFFFFDFDFAFB0100FF
1440152BF805330F19
0CF8D802EDE9FAD4D2
01FE01FFFAF9000203
0850381FF15A3C1B53
4D11370EFF48F84324
02FF03060001070503
0000F800FCF7FFF7F5
AFB8BBC3DFD1CCCCDD
FAFCFEFEFA02FF00FC
000002FEFF02030102
FE04030506FD010400
FD0003FDFD02FE04FF
100313FB0E1116E7F5
FE0201FEEAFF090DFF
FFFBFDF507FFFC07FD
00FC030206FE0002FF
2AF903280500F3F9F5
FAF5FF07FD011E0719
FF000005060000F300
EBE90F2ED8092D02FC
EFDE40FAD9BE0712EB
05FF00000100FD0001
0002000103010319F1
0A11120B0F1FF9FB15
03FD020CF102010201
FAFF010B0100000000
06FC01F003FFFE0000
03FF010FFC02FEFE01
FD00F801EAD6DAF213
020501FDF2FF011502
09040105DF14FCFD06
FF030100F9F4000304
2F0A0A6714FFFBFAEE
000900FD09FA0C1D07
FFFF0001030101F2FF
FB0105050EDDFF31EC
170A2321E4B1180F09
FEFFFFFC04FFFC01FF
FE00FF00000202080E
F805FF02060BEDF101
FFFFFF0300000107FE
F3FE00060500FF01FF
FF0000020300FCFC00
00FF000B0100FDF403
140E180706DB00C6DE
FE030002E1000102FE
F7F1FFF50008FAFBFE
FFF5FE02100300FF01
6C11F90B0AF50501F0
FAFBFB0613FF112318
0000FF020C00FFFE00
15CDF229F7E4BFF2EB
C8B694F7F8D90AFA04
02FFFFFA0200FDFF00
FE00FEFF0202FE08F1
060104EDF80EFAF1FE
01F60004F900FF01FF
020100000000000000
0AFFFEECFCFF070000
02010000FA0001FFFF
F00807FDF5E7DCF816
02F7FD0403FE040900
E9EEFDF4FCF6F900F6
0002F4FF0304FDFCFF
9D00EEB0E3F0C9EEFA
DEE5D6CF19FEE80805
FF00FF02030103FBFD
E1A1E907E6D8C0FDE7
B2D5E9C2E281F2D3D3
0009FFFC05FFFF0200
020403FE070A040710
44526E37415C2C2A21
0706000504FC000200
0008FF0002FFFFFE00
0107FFFDF6FEFE0102
02020006FA0003FC06
E4CFC0EAD6DE07F71A
020701FDEBFE04FFFE
FFFB01FC8103FF06FE
00FDFFFF04060101FF
34120115F104030A0E
02FF0705FE0E23041A
FF00000303FF020000
00E8F800FA03ECD9E4
FCE39F111110080E12
0201FFDCFFFFFEFFFF
FFFF00FF03050006EA
05140AFDF601F60007
01FE0002FB0100FC00
A1020103FE00000100
0B0201F8FAFF000202
01010081F902FE0402
0F17181106E9F6F82A
FF0510FEF1E603FEFE
FF0CE9FD07F7000301
00FFF700FFFD000001
0FD8F7EFEEF2EEE4EA
0709F5F9ECF7ED3707
FFFEFEFEF9E9FE0205
051D0E0EE00F0CF0FC
FA0EF4F4122DC9F7F7
FC82FDFFFCFEFEFEFE
02FFFE0000F5FFFCF0
0AF70206000704F604
00F90101FBFF00FF00
FE81FEFDFDFFFFFFFE
FB8100040701FD00FD
FCFA00FDF906000201
0805110612F401D7DE
46F1482A063E693537
EBFC06F20108E4F8FF
3F2B20342D485D4A43
291434150926140A1C
5225092E10E5F0E8BD
DEE7BDFCEEC5F3FCBE
D9AFBD28ED9A0003D4
D603EE8107F19DC5C8
CAE1D2E6F2EBC2F0DD
1CF6D8130BE9391F2D
09D9D8100DFA140620
3C3417201F1C291923
ED03E11421EE1C03AF
1A2B3AF40424BCFD0F
0E2609121DF7E6FDF1
81FEED00FAF003FEEF
414D7B211C3B581B28
3E1B1A24021144141B
E3DFDDF705FB644D4B
492651FB0907F7F006
2311090008F8C6DDB3
D9CAB009EFEE04D9E8
DAD91DD9D9E1F9E1F3
F5EF0400EBF30EF50A
38285CF9FD2DED2022
E8F1F2F90BF9F9F7E8
A1F2DAEA1802C0FEF4
E6E0BDF910E9F200DB
321E3D011E181A1D35
4FF8DA1BF2EC25EDD5
DFEAEBED0D06F2FE09
2304F3FDF6F70301F7
513C3D582754672B2E
DFFAFCF0F5F7E0EDE7
5C343648333B4E2C45
2B3032250D1C1F0E1A
5127030DFEDBF2D9BD
EACFAFFAD8B7F2F6E8
87BFB5A4C3D7B2B7C6
E102F3D5EAE2C5D1CD
9FD08FC8EFB5D1C8A2
10EB1A12F1061420F9
F7DB03F1FCFE020319
5D3154451B1E30172C
1604DE3924FA1DFADF
13327FE20934C7E021
0711FA000A01EDF0E4
FCF2E7E1FCEDFD03F4
2B1F2B1A01FF0408F1
13041404FA0D03F301
150AFC0F02F9160915
3D324401FF19F2F7FE
1C0D19EDFFF7DCF9F2
E3FCEA0A0D081335E0
D4E3D4F5041CF02635
F7F9ED04F30B130D0A
1002141F0A12190109
06FCF70C1DD00717F0
DCDBF7DE04FFDA0D12
211E19FB0B05EBEB01
F4FE0DF3FD14FC1F2E
240E1D0F03F8200C05
FA18060A23EFF704D7
FFF3F90A0401070704
1707FA0B16E3F40CD0
FE0D010102050D05FE
110D0813070EF200ED
150F19F70A0CF6FEFB
01F814F2F004052255
E906E3FAF7D1FD12D1
070A0E0A3B2B080F3B
03F4FD200612422C1E
18FAFF0BF5EA22F906
1204DE101BE10F11F8
EBF62405052E09111F
0E1926ECF505E0F102
E9140E022C0CE807FF
FCF8F90C0FFD050802
060BDFFF09F4FB0913
06040102FF0205FD07
9FB4A4B2DCD0B7ACCB
F9FBFA020B0CF70006
CFEBE898C39581CB94
BAEAA2D5F7C8EEF5C9
D3E8110A0C2E172641
32142A2804FF4007F6
7441424F3E673B465C
03FB173123265F363E
2A154F1A053F390237
0F0F021B1AEA0709E2
04FC0904FC02FDEB00
B1E3FDD0DBD9D4F1E5
0CF7A10CF7AEF119EA
ECD2941707C3413AF2
2430E326FCD5250B21
FE141C0E031BFB001A
31035A19F235D81012
3B17111F110D41261E
D9BDE4ECDFF930014A
01F821FFEFFBE3E5FB
FC0AF60FD5F5F2FDB7
F7F6DEEB06DA2481F2
3A1C22C70315E4CB54
FFE7FF03E104412438
59636C33F65775376C
ECF0F0FBF108E7D0E0
C902E9F20D0BD1F9F3
DAF8D70715EEDF03C9
F21B44D81632092738
07EB8F2A10DC5213DB
EDFF00F506000A07F8
1502060704F2FEFBEB
0C1A10201E092B0B14
3B1507360A067F3522
ECFF00E6FEFB2A1010
FEEA021B00F8FFFDF5
F10D16062D1013161E
F7E1ABF9FDA3DD01D9
696A3F0039491DA12D
2DF1052EF4FA792726
593553160D071D2819
F6FAC603078B05F1EE
FD09F72427022314F8
DCFBF5FA171AF00701
15C62A09814FFBE54E
E7E1D910050836FCEE
FD0803FC1902FE060F
24070AFEFBF9FBF5FC
F6BB06DEDD0C13AE08
1A01F5120A0F070A0D
CDE7EAD4E9F0EAFDFC
CADAC9DCF6EAD9EED9
F5F0FDED0EF9CBDBDB
12260F253C2D4C3F2F
F0DFC2F31AF3D30D30
F4030B0FC702230517
6F607F613B496A4478
F712F40827FD0118F9
ACC5DEDAD9EBB6C3EE
CCCFB4E4EBDCD9D2B8
F01111DB1417EF210B
19E6AC3318F14C42FE
0D1E171316E6FAF1E3
0DF7061300FE0801F7
01D6D31E09CAEDE7B2
DDF7F8EAF3FACBE1EB
080D25050414A7C2B0
DBE8DBF5EFE2FEFEE9
E7F1F4F703FB4B467F
18305AFEDF4704EF67
260EFC413D203A0EF9
0715FC1812F41D1B06
0F08C3E7FCE10E1109
F9A5230FF5F431161B
45082F3C1D366C2E31
070E51F2F41EF4F325
B294C5B5DDE3B5DAD5
DDDB19F0101DD70F32
1ED2EBEFD61B130D24
080415F90118060E27
DC19E90FFD0802ECD0
E30704F80B06EF0BF4
262A25F605FECDE8C9
F90EE2E20808F3FBF1
0AF9F20BF2050CFA3F
04E641F5E8180F030D
CBD7C5E71702F2170C
FF09FCEC0305F0FAE8
D2FAE5092C030CF4F8
EFF9FBF9DB001DF806
4320281AF312380A36
36197FF6F629FAEF15
EB02DC0210F7F210EF
C7FE26CDFB0BD6FF0F
1AF3FF09FEF101E9F9
E6F80700070B05080F
DEB4CC10E2DEFC15F5
BBE8E4D5EDEEC9EDF0
442E23200905F0F5DF
C4DED9F001ED030C07
19F0F8150E05131A1B
3A295D0D0EFC2007D3
C1ACC4FBCBD50AE9CB
070804E4FAEED5EDDA
B6DABCE808D9F5E6B6
28E9FA0AF181261A06
7C3F37511D1F7F252D
4B5072122B420B2236
CEC5A9F6ECEAF29FA8
CC1A4BD80F36D10627
2A2B1D0EFEB802FCE3
DFEA05F80903FB0006
6D3B6F7E324D6A4856
0C0904FDFE04FA0304
2D0A1925EB0D65395B
28285316F60C1E0D19
361D00FAE4BCBEC39A
0706F11A1B2418221F
AAE3AFAF08C0AFFF81
D4FF09CBEEF0D3DEFF
21192826FD1A2DFE25
2203F81C1DFB202609
BCBDDBF9FC02C2BEAC
1E0A0210E3E309EEE9
F50F14EC1A1601281C
4B2E35231F21F51716
E1DAE4E3F7FEE7FEFF
F7FCE002AAF0F8F4EE
C0D6D6C6CDEBD3B1BA
1AFF0819050927130D
D0E2F1B5DAE2D1C8B9
C9DEBBE3FAE7E5FADE
DDE606FC0D28183154
F8F123FCF403EFDBC9
502944532D785E1230
260B10450E1365384A
453E663E272A452D51
EB02F3E30200E5E7E2
E51516F9FE0A06FB03
C9DED1D0FBFFD9E7EC
0F2211F9160FEE1D05
E5BB8C22F8CD450DDF
1B161C1E1E0E1C1A0A
15121D05071107FE10
B8B299CEE7BFCFD8C7
E3F4FCECFE0FE7F6FD
FF07FCE3E9CBB5D1C2
C4DD9BE9FBECF9EFEB
F2F00504093B19375F
172064FBFA322513D9
2F0E1046363706131A
130F030B10151B060F
E3EA0DFBFB1AFDF709
FD07F0FB0BE508101C
4F493731292268360D
F20025F1F113FD031A
F906B1081B96EBF9D7
BFE1D9F504FBD0F818
2914470C19850911E3
FCFA1D0A1610FD0816
7F2E41693F59774D74
1E0A1303F207F9E2F4
3101F51E15045A4D50
72407F1F133E15F828
1DFCFD11F50DF3FBD2
0818FF17F9FBC0D890
E9CDDDFB0712ED0506
FB0509F90E11E3FBFA
A2DEF5BCF8ECCAFBDC
010313F80819F6F5E0
122000F71A1EFE2427
22F5E51EFC0617100A
05C6070FC158091F59
3C1E29070223FCFD18
0B10FF0E0C81F3F5CB
02FE0204090E0A1109
2313DF0B031330141F
12F9F70B010536F7FE
130BE3FF150CF4FE00
0013FE0C110CED0901
7F185829F218711B16
18FF1F08F3ED0CFBF5
F9EDBCED07F2CCF1C3
0B030D00E904491224
DCEE0CFDF013200542
05297B1A2B15E6111E
2605F3FE1209E007C1
53001D12F0081DF1DA
F30319FBFBFED60913
02EAC9FD06ECED03E8
FD03330BFE09290E14
40FAEA29080A30F5D8
DEFD23010A0DD2FBDF
E0DFF80AEFFD6A04E8
F807F1F70808F5FBF2
3712EC160BF71F1425
320B150BEFF550FFEA
7F1A120AEB01F5FBE8
12ECDB0C02F410FCFE
E0093F1D0B27E8150D
E7FAF10200004B2531
4315283306ED524655
39EBF20CEAED2BF6D2
40121806F30AFFF3F1
00F6ED05FFEF1BFEEC
CFFDF50BFF0DE50C15
12120F0A03FF2322FE
22ECDD21EDF45D1732
330801FDF504110A14
19F91FFFE2E735E3DC
13130DF5FFF8E6EBEC
D9EAD6F510F4EAF7D3
10F5FD0FE80C740926
D507020305101E0618
E80302FC1C08EE07D0
42FA2B0DD4FA43061F
E904F10BE7EF39105B
BFD2DCFF0B0AF22636
CA0012FA1E0CDCF99F
24F7F42106032FF6DB
F01015030F0BBB0E2D
0F12FBDAE9E5BEE8C3
F7E5F10BFA0F351132
F7E2DF17E9F27801DD
FD04DBFF0FE0040318
150509110DFF040DFB
FBF0DEF5F5FE000217
F7FDF7FDFCF6F0FE01
3D0E59FBE61AF8F617
FFF60DFFF8F80FF509
FEF6E3ED06020206F7
3641570A14380D132C
E1EBFCF70B21F5FD13
060D5EDDF501BDF4ED
1F09F0FBF9F1F3F8F3
7F2D360EE4E80BF7CF
FF1C53F1F70EE4FC10
DFDCB212F50DE7FE0A
FC297F040D251A090F
4B04ED2B1DEF0709CE
1529C80D10FC1F0718
1B0B07000F08E1FDFD
F201FEFC0513010D2D
E20109010A14FE0E27
3D250410FFF4D4D7C0
DDFC010F06FF1D12FF
E9F000EFF6210A2A7F
3B1D2914011A0E0F10
FB0D170E100AFEF9A2
0F07270606EDFBF5ED
0506F1FDEEFC050857
400CFC01E9E8EFF20F
E507FCF0FEF5371702
F3DA0312DE1E3A1650
140B18FFFDECFFF5CA
0EEDE703EC0BE30434
0908DE0FFE21122311
F3FB0CF601EEE1F5EB
0D2C49040E0B09070C
F7FE0AF0FBF3F4EEEA
13FFEB2B2C06383733
FCF7FC050F13F2ECDB
FF0A32E7DBF9D9B9EC
CCD2DEE1D8F099AEC3
08FF01F8FAF4ECE2DA
0E2E051D334739363E
070B250309250D0F31
DFFEE4FAFF02EDFC0A
12FAE910FF00FEF9EE
523241350A2B2C1210
FAE2CA0100EAF3F5C1
EA0308F9F600CFD7CB
C8DCF6ED040FEEF1D0
FB11C2FAFFFD00FFDF
08FBDFFD06050D06F4
4C227F24123412165C
A1D690E3FFD9CD01F4
6E11510CEED804EDBC
2F33610BF41D32273A
F127F107460FCD07AC
1F1610070602EB01FE
DC02DBE505E6FCF93D
230AEE1A09F5360B12
B3F908F80305FF0A0E
4A15E1210F015A0DF9
25113015F90228F20A
18FCFC0E1E05EE07F7
2A1F2010060BE90A50
F810FCF712CECAE0C4
F20B0EF2FC022003F0
FD0002F803FA13FEF0
0E07F9FBFEEB181916
AFF6F2E00FFFD1E101
320EFA270E10F3EBC6
02040303100F403955
DF0E41CB0A1383C1C9
200DFB08FFFB1F0C0A
E9DEE7EF080A2B2870
FC00F2FEFBF87F0A0B
EC1509060500E8FA04
0DF8F605EEF27FFDEA
1CF5190AEF0829F912
0107F4090410EAFEFA
210EFA00EE0B5D347F
DC0AFD02170DDA02DF
E8FEBF141A0F230AF2
F5F2CE0B0C000F0DF3
02150CFF050DF70B25
25FD02201302190B18
36095BFBF20FE8E2D9
FBF2E2E4FF1CF0E0E4
97E2DEE0EEF892CE91
FE0B0E02F510FAF518
333F7917F84319287E
190CF6110D07201601
E90412E4090AE7FEF4
F702EB0C0E0F1106FB
E0FE00071504F8F90D
FAF7F70CF8F3EFE0EA
EBEDF8FE041BF4F821
1F03FB1CF41866294D
0E140B060708E60512
05FA0806031600F711
E3F3EBE2E8EBD4DEE3
2C2746371425242F4A
E3F3D2FFFFE326240C
FEF710F3EEECE4E4DE
383928211316492F36
FBF80003F7FEF2F1DE
DBE0FEEFE5F0CAD6BA
061F3202051DE6082E
0CF8F510FAFC06E1F3
EFDE09FE0713EB0100
51291330190B3B190F
DBF2E9FB0F07F007EE
0E06060C0C10CADBCD
3204FB17E80C5D2054
3A2D3BEA00F7C4F20D
15102C0E071D060723
F9050EF7060FF7F1FF
C1CFE1D803F8CDF90A
EA172310F3FB63182D
251C300E0C1D0A0D29
54230D0BE6F822F435
2605120BF1FCF3F3FE
B8E1E5E9FCFED0EEEC
B0FC0EEE0604F92333
E90E04E8FDEEF7FB09
0FFCFF0BF904160913
5E221B35FFC9581B0D
F9F8F3F7F804EE0115
002123FF0210D80106
743209201A19272C7F
24167F04E912E7EF08
17177F00F60EFC0B2E
DCF9ECF90E0AFE03F1
2211F324F608130504
BFFFEAFB101E101721
FAFB29F40C24E0F212
7533303B2A3A221538
FDFD160703FC190ADF
ED08E4FF07FA110ECD
CFEB06FBFC17DAF524
4C110614FDF8FFF1FC
010718FF0913D91524
15F80C120110F1040E
0D05FE06010010FA09
FEF8FD03FFF10CEFD0
FAF116FD0712191B01
0C02DC0C01F82D0DF4
FBF0CFFC080103FEE4
092327011517E80822
7D291A4D18085A3A36
1A1C5A04070BF8F5FB
FD0BC70CF8EBF6E5AF
1515FB03F4EA34F908
F51D22FA020806317F
53306930232400287F
472A01210A04EB07DC
2B1C3B04050B0401ED
FD040AFF0A02D3EDF9
F4F9DD080603FEFDF2
19133E151124101548
3419062D0FFE420B10
F21F2CD5111EACE72E
F5FC55F9EC071FF5E6
F7FB2EFFFB0902FB13
FCE8CA1304EB1506F4
56372525FF1A23F9EF
25FCA5150E0BCAF810
E6EAFDECDEF602EC08
FA3A53E0FD2881C2FB
03FBFD0306F62905D2
3517F9320BF14110D8
22FF14FEEA0823EF11
3014F9F5FEEFDCF1FE
E6FB2AF0F00016E6F1
DA04DFFC150AEE0C0A
12090C0B1007F500F2
2809E711FAF342F9D9
0CFEDAF511E603FDEF
091209FB05F8ED03FC
102630EA1902FE0A0F
21163A01040E021414
96C8D3D7EF00C0F2F6
282812FC0D220DFCEA
321721080425160D23
F70E18EEFB06C7D9F7
2509F3EEEBFAF1E8EC
B6DED4DDFB13F02222
EBF80705FF0B122A34
E2E601FB06120B0C1E
1AE6E128FD0633EBF8
7F353E0D1011261F28
EAE6D6D504F8D205EC
D8F705FDF714E9F915
BFE400F2EA06EFF410
FAF4010A030803F5EC
EAE6FB00FC0301FA02
32132E060D0EF801F6
DCDC87F9F3C9E6CEC3
2F100D01E801F30301
FD1D53DDD90CDBFE4B
B8D4DBE6E801C8EDF5
0EFE0A0902FF1007C0
30F9E524FFFB15FAE2
19E2DA04F2FD02F72C
0DF50217070A09FC07
27FECE130DFA1301EA
E5103AF903230C0430
15F8B90302D10AF6C9
09E00516F915E4D5E9
FBF4F0FAFEF8F5FE03
F2E9C81D1401121611
9ED1E5CBE0D0B1BE98
E3F8F4E3E8E001F2E0
00F6FEFEFEFDFFFF04
3925043C222D694866
CEDAF4D6DFE1C6D2C1
54200D483A29663B41
0C11FA150FF42515E8
3525440A1128E0F712
EBF0C71504E7683202
06F5F5F6F3FBEBE9FD
020D060F10002E1FF6
273173FC0F2DBDE0FE
EEF0C30F02E45E2AFF
163F7EF41C39BBE8FB
FDF4DEF4F9F3D8EEF7
0E163315153DFF1232
D6CEA3F2E3DAF9ECE1
FFFEEFFD02EC1DFCFA
FCF4DAFDFAEDEAF6F5
2D417F041F3EEA083F
E5D4AFF6E5DDF9EBE5
0433730A294CC40C22
1D110313100F0A0910
141737070C1805101C
39386F222A4B201950
202539FF071200FA1B
160B0A0D090A10050D
A6D3D5DCE2EDCDE3D9
331D3C231E2E231E51
95D1B5C5F0EBC9DECA
563D2B41342C232325
C4D8B5E9F6ECC9E5E2
EAE8DD1816031603E9
C0E8EED7FC01CDF9F7
39232A2A1E1730191C
FFFE04F1F9FEE8EEF9
01EBDE0F06E9220BF7
EA03F7FE0D11F8FAF6
100A000B0E04080A01
230A0C240C071E0818
7D5A592C1908DDE8C9
25151505F9F4F8F4EA
0E0E070B0C08040703
C4C6BF1000005D2F3B
7F515E291B11E6F2D6
B8CBD803041F553756
F7F1B700FECAE6DF99
0D154D030D2E2E257F
35334D2C2A3D4C4168
1F293E1E2046162F7F
DBDCBEECF2C7DDDBA9
FC1C37325056064642
1D1E2B1B243634415A
103060132740142048
4832403A24313F2D3B
2D10081F0E181B1D32
9CDDD7DFEFF3B6DDC2
FB0B0902060AD4040A
32283A2917282F2437
7E3B0B4F28143D2438
9ED2CDC7E5E49CDAC5
4E1D0D2A0D17491D3F
C8E8EDFC071D272967
22070806F9F5E3D9B4
02F609230E1C36163C
3115151103FA13FDE4
D1EDEDFE07172B2959
0E13FC0503EEF3EDB3
00F30513071C2C1E4F
E405EB090BFD260F08
110A0C151016F7F90E
E0E9C30A07F4FF08F7
1416403B2F443F2036
CDDCDFE3EEE5E5F6F5
100720080818FFF91C
D4ECE3CDD7CDC0BFB4
23182D29172E2E1A4F
B5E5DCD1ECD6BED29B
1F06EF0AFCE5F2EBCB
C3E0E5F10E1EFC2348
340CCC441DEA642DE5
F5F6ED14160D4B3325
1804F607FAE6F9E6C8
B1E307D3FA1CE00E36
3408DD320DE74516E0
BFE5FEE0F20BD4F507
7F3D152C0DE209EEB5
D8ECECF90108FA0816
0C1C3F110A1604070D
C4EBFBE5EDEEF2F505
7F3B212B12F70FFBD7
F604EE0B120B1808FB
040A2D0F0C0FFC0A06
7131102F16041708D5
011B4CF20B2CC9F11C
2E06CC2309EA5F360E
2E0ADA3F11E07F27E3
2708E02610E9551CE5
F11446F1072CCAF01D
FB0914F10717DF002A
28FCD4330DEC5F27F5
F4154FF10E3CD0033D
CEE5CCEBF5EAC8E4E0
482E1B3F3A38253034
D1EEF00F0AFE0604FB
14232629301A4F4E31
D9DFD3EBEBE8E0E7E1
411306310BF93C01EF
DDEDF2F8F5F0F9FEFD
14FCDA24130B1AFCED
06236B0F1330382B45
2401D10A00FBEDEFE9
191747050E1CF80911
2E1B181B1914111212
002A6F0E152F282442
D8C79FDFC9AEE1C38C
12142EFF090CE501FE
112F671A375943467F
2911F02F1B035426F6
DCEF16DDF10BC7F01D
1303E8372412624B53
0C0D1E12071A2D2744
1804E4240EF85A25FA
08040E0B080BE6F7E0
0202F51E1D1A483653
2203FF1C00EF2AFBC8